// 16 layer-1 biases then 10 layer-2 biases, int32
ffffffda
00000001
00000017
fffffff0
00000000
00000037
ffffffed
ffffffec
0000001c
ffffffec
ffffffe0
ffffffeb
0000001a
ffffffda
ffffffcf
00000011
000000a3
0000006a
ffffff6f
00000111
fffffff3
ffffff62
0000015e
ffffff6f
0000001b
00000062
