// layer1: 16 neurons x 64 int8 weights, then layer2: 10 x 16
00
00
00
00
00
00
00
00
00
00
00
00
00
00
00
00
00
00
00
00
00
00
00
00
00
00
00
00
00
00
00
00
00
00
00
00
00
00
00
00
00
00
00
00
00
00
00
00
00
00
00
00
00
00
00
00
00
00
00
00
00
00
00
00
00
09
ff
0d
e5
f6
12
06
eb
e0
14
f1
f5
de
fa
f7
1b
1e
d8
ee
07
08
10
f1
0d
f6
fe
ef
04
d9
18
fd
00
f8
1c
fb
0a
e8
ea
00
dd
d9
f4
fe
13
18
0d
f9
00
0a
e1
13
ff
eb
e8
dc
00
21
02
0c
13
13
db
e4
00
68
0f
12
36
0d
29
35
de
03
3a
0b
12
1e
1b
39
10
fa
cb
e8
05
f9
0b
08
7f
f1
f4
fe
13
f8
0e
e8
00
fa
09
00
28
24
39
00
e6
09
df
cf
fe
fc
21
ed
0b
1d
d8
16
06
e2
ff
0e
e9
24
20
f2
f4
e5
fb
fd
00
f3
1a
ff
18
08
ed
18
3b
f6
fa
0b
00
1c
f2
0b
36
0b
d5
11
1e
dd
0c
00
00
ee
d7
1c
12
ea
d2
bd
00
fc
ec
1b
47
10
01
00
16
ec
1a
26
07
f7
14
1f
11
f4
15
1c
05
16
2b
06
fa
1b
f1
fc
13
15
db
00
00
04
0e
03
15
12
d9
df
1e
d7
0f
fc
1a
f1
0a
dd
29
ea
d5
13
e2
1b
13
eb
28
21
05
12
ee
d8
1e
08
00
e4
0f
da
df
dc
d6
00
15
e3
f4
f2
f2
05
11
e7
fd
09
18
f5
f7
f9
f1
f6
0e
12
e4
05
da
f1
23
20
00
3f
fa
13
fb
e9
06
fc
e4
fa
1d
00
10
06
13
14
c6
f2
eb
08
ff
03
11
e4
ef
d4
16
d3
de
1a
31
c1
00
1f
e3
05
12
f8
24
00
df
1c
36
1f
da
f9
26
fd
2f
e7
02
33
1c
16
16
03
ff
10
28
fe
f4
07
1c
0a
00
cb
d4
f4
26
cb
01
17
f0
e5
e6
15
11
d3
f9
d1
a4
ed
16
0c
c8
06
29
0d
30
2b
16
e8
f4
dc
1a
35
00
0e
01
e0
0e
05
20
00
fe
40
18
03
ff
20
2e
1a
d5
0f
46
ff
1c
0d
f2
db
fd
cb
d4
e3
10
19
04
d8
00
0b
fc
d6
db
04
03
0e
42
30
29
d2
02
2c
f3
39
19
09
ea
04
d4
0c
ec
27
fc
0d
3c
cc
04
f1
e6
00
00
cd
ed
05
f3
f9
08
00
1b
e3
ef
32
0e
15
ed
00
f2
1a
11
ff
28
f8
fc
e1
0b
06
c3
fc
08
22
bc
16
00
2f
05
f8
fa
2e
28
df
f2
14
e7
f8
11
08
08
05
d7
f0
f7
07
2c
e0
d9
00
c7
ea
15
ee
1b
ff
f5
00
00
d9
e8
02
08
0a
e8
00
0d
da
d4
e3
bf
fe
16
15
12
ed
fe
f4
29
18
2d
0f
2e
0f
28
2c
22
0b
05
30
00
a3
e9
08
f6
eb
f8
18
fc
e2
f3
ed
e9
09
dc
13
12
1c
f5
40
1d
49
1e
2f
7f
07
2e
2c
11
30
3b
4c
00
19
0d
07
14
13
16
00
fc
0c
00
2c
0c
e8
fd
d4
dd
25
fa
fb
e5
e9
f7
25
da
ad
01
05
e6
0e
06
dc
00
f0
f9
0c
21
1d
10
e0
36
f8
ee
f6
16
1f
1a
10
7b
1d
fb
fa
19
34
2d
dd
ce
e4
e2
f0
06
0d
f4
c1
00
d8
12
f5
eb
f2
c3
00
f7
f2
14
ef
f1
f8
c8
25
ff
10
fe
20
06
fb
21
fb
31
f4
de
08
2a
08
21
06
00
2b
09
0f
05
45
1c
18
35
de
e6
f6
fe
da
0e
f4
31
d6
1a
08
e0
bc
f6
15
02
30
2f
04
13
04
13
f5
00
58
39
f2
1d
fb
30
00
18
ec
1f
10
0e
01
ec
2b
e8
12
1a
14
e5
d6
ea
1e
e0
11
e9
11
20
de
fb
ec
00
0e
1a
22
fa
01
f1
02
43
0a
34
1e
fe
11
0a
02
e1
1e
31
f2
d9
13
16
fe
c1
18
f9
2c
f9
f2
03
f8
00
01
dc
11
ff
0d
fd
00
d4
f3
16
d0
ff
f5
13
10
0f
1f
0e
14
fb
14
09
dc
ea
f3
1f
f6
14
07
ea
e9
00
f4
0a
07
ec
18
f3
db
e3
1c
d2
13
e6
e5
fc
f0
0b
ed
f7
f9
0e
e8
ec
f4
ee
21
ec
16
f7
d4
de
00
00
06
ea
e6
15
e1
21
00
25
12
16
12
db
11
06
fe
08
1d
ec
ff
0d
1e
17
05
ed
02
1a
f2
e2
ea
f5
2e
00
1d
0a
04
e7
ff
2c
e8
8f
28
fb
f6
24
f4
d8
4e
69
0d
f5
0f
f5
f5
e9
ed
74
20
02
e7
19
fc
06
4e
00
04
f6
e4
28
31
10
00
1a
3a
00
1f
0a
c6
c0
da
19
0b
e9
3b
20
f0
cd
4e
18
50
0d
f5
f4
16
06
3a
00
e9
13
d6
e3
2a
b8
f0
00
ef
bf
f0
fd
fa
f7
ef
fb
31
11
2f
0c
f0
25
10
10
04
19
fa
04
ef
38
01
00
f9
cc
f0
ff
10
f3
00
00
d1
c2
e8
30
07
0e
e6
00
dc
c1
e7
fe
14
18
27
00
e7
f9
d9
f0
4b
32
16
00
3c
ff
b5
fb
3c
3d
cc
a6
f4
1d
dc
02
f2
ac
d9
00
ed
bf
31
1f
ec
9a
cd
0c
f9
0d
32
c0
29
45
7d
00
fb
c2
11
f4
5c
b0
f8
1f
93
3f
cd
e4
e4
4a
b6
00
34
43
16
3a
e1
16
c4
33
a2
29
b7
e8
dc
da
e1
00
eb
09
df
03
e6
26
21
f2
37
95
18
ca
06
4a
ff
00
f0
11
ec
e5
ef
a9
e6
3a
d9
8a
49
17
cf
13
8c
00
0b
bd
26
34
42
f5
c1
ca
dd
d9
3d
d6
1c
81
f2
00
c9
4d
09
f7
38
a4
33
c2
f9
ce
25
ba
37
05
00
00
bc
d2
2e
03
fc
b1
4a
dc
f8
1e
1d
11
25
85
2f
00
0e
0e
d0
0f
d6
e5
a2
37
1e
29
db
0f
30
c9
e5
